0b
0e
c3
fe
f5
f7
eb
0d
12
ed
04
fe
fd
0a
f4
f4
f7
fd
1b
05
00
f5
e9
fd
ee
f5
e5
04
eb
15
fb
fc
e5
f6
f9
f0
f7
05
f4
06
26
fe
16
ff
fa
11
0d
fd
05
0c
07
f5
fd
13
0d
fc
ff
02
01
fa
f8
ee
f3
05
ee
dc
ed
f8
0b
16
06
fa
1d
16
0e
03
13
11
15
ec
f9
ef
f4
f2
fa
01
fc
f2
fd
0d
fd
fd
01
df
f3
05
af
81
b8
e2
d5
fc
f1
15
a1
da
e2
03
04
eb
f3
cb
e1
c4
fe
b7
da
f0
f4
11
f3
01
dc
f8
08
c4
fb
fb
b9
06
15
ee
04
0b
12
f9
0e
f7
03
fa
0c
1e
fb
e8
ef
f6
0d
f0
07
f9
fe
fb
f8
f3
03
e6
04
f0
02
06
28
0a
f7
ff
ee
da
f1
05
fc
86
e1
fd
13
ff
09
00
07
e0
00
f4
2b
e5
0e
ec
1d
c5
e0
18
cb
45
12
f0
09
de
f1
fe
d6
d9
fc
f9
fe
18
00
0f
f4
d9
07
f5
0e
13
03
fb
f5
e3
06
08
e3
05
f1
06
fd
db
fb
01
04
f7
f9
f3
11
0d
10
0b
f5
ee
fc
04
0b
fe
10
f6
03
fb
ff
04
06
f9
03
05
03
f6
0e
07
00
f4
09
0a
06
06
23
0a
f0
ee
f8
03
d8
be
ff
ea
f6
ff
ff
e8
f4
06
0f
14
f7
f4
e3
f6
ed
ef
fe
b2
e3
0b
05
e2
d5
ad
d9
e9
eb
ef
ea
13
e9
ea
0e
0e
04
f1
01
d8
11
08
fd
cc
f2
06
f2
f9
e8
fb
fb
eb
02
ee
f5
f2
ed
03
ee
f2
17
09
f8
fb
f4
04
fd
08
fb
0c
ff
0a
12
f7
f2
09
0b
09
fd
fd
04
f2
fb
1d
e7
f0
f1
fa
05
16
08
ed
f6
22
1a
e2
e2
a7
13
dd
fd
f3
0e
ec
19
11
cb
0d
06
f9
2f
fd
2a
16
eb
fc
01
35
f8
20
cc
f1
0f
ec
f7
09
fb
f8
ed
e5
0e
0c
04
01
f7
fb
02
00
f6
f6
03
0c
03
06
fa
fc
13
fc
fc
fe
06
fd
09
1f
d4
fa
11
fa
03
06
f3
b3
f6
f2
05
11
e5
11
fd
00
fc
06
08
0b
12
f5
14
f4
05
1f
dd
27
fd
1d
d5
02
06
e7
10
08
19
fb
07
04
05
f9
03
05
fd
00
f7
fb
f9
fd
f4
10
07
ee
1b
12
15
f9
00
fa
ff
09
c3
f9
1a
fc
12
f8
0b
ff
07
f5
fc
05
11
12
fc
e8
f2
ff
f8
f2
fe
fd
1c
fe
f8
ee
04
eb
0a
01
fd
04
ff
e4
e0
06
04
f5
ee
03
fe
e5
0a
f9
04
de
fc
06
fc
0f
0a
f6
09
ef
ec
04
e1
fd
0a
f4
ef
ef
fa
01
ff
03
f2
e4
1e
12
0f
f9
06
d5
fe
ea
19
2f
1c
e6
e6
e8
de
cc
0c
17
13
e7
1b
e4
28
1f
04
f9
f4
16
f2
12
00
0f
0a
12
07
f1
0f
e7
05
f1
0c
11
1d
11
19
f7
ec
12
02
15
06
ff
1b
04
05
07
19
0a
04
08
ed
ee
b9
f4
f3
d6
c2
28
09
0d
dd
13
f3
fc
fb
e8
02
f3
13
f9
d7
eb
f4
31
ec
09
f7
f9
fe
e4
f7
ea
ff
fa
fc
03
f8
0c
fb
02
05
ed
f5
09
0c
08
fd
f2
fc
0c
fb
f8
e9
01
0a
0f
f3
f2
01
ed
f6
df
04
fa
fd
05
14
dd
05
06
14
03
fb
e2
ed
00
08
1e
eb
e8
f1
e5
fd
f3
07
fb
1c
0a
13
e5
f2
0b
d6
04
f5
0a
ff
f1
ed
1a
ec
dc
00
f5
11
f5
0d
ff
16
ef
fc
f7
00
0d
03
11
fc
cd
00
f7
f3
e4
e3
ef
e6
f5
05
0e
fd
0b
e4
1a
08
f6
e8
f8
07
00
24
0e
06
04
08
0e
00
fa
dc
04
0a
06
ea
13
e3
03
18
02
15
fe
0f
fe
f6
ea
f4
f3
0a
01
06
ee
14
00
01
05
19
05
02
00
0a
11
ef
f7
00
ff
ed
e5
f4
fd
0d
09
00
e9
fc
f5
05
fd
0d
fd
ed
ef
ed
fc
e1
e1
ff
fa
fc
0c
f6
02
fc
f7
ff
e8
e7
f5
e3
fd
ea
00
f2
ee
f9
e2
fb
de
f2
fc
04
04
07
04
eb
33
f3
e6
0e
1b
fa
1a
0d
fb
fe
0b
1a
fd
02
04
ea
19
fa
04
15
18
fe
03
ff
0c
06
10
d8
d8
00
11
fe
f3
03
eb
07
da
f6
0e
f7
ec
d7
fc
e6
db
09
f7
14
dc
20
ee
08
1e
06
12
03
02
cc
dd
19
ff
02
01
05
14
0d
01
ff
03
02
09
0a
f1
0c
19
15
09
f1
05
f6
ff
07
01
0c
e4
0a
af
f5
0e
e8
f2
22
fc
2a
0d
02
09
12
f9
0e
13
18
19
1a
fe
10
f6
0f
f9
14
04
f8
07
06
f3
0d
11
01
e7
0d
1a
11
06
db
22
d6
11
0c
ea
10
ed
ed
ea
cf
cd
ed
27
1a
18
e5
16
0a
06
f4
f5
07
df
f1
f7
e7
16
0f
ee
15
f3
a4
08
f4
e0
e5
f6
02
fb
05
f7
fd
fd
fd
f9
f9
e6
fe
10
fa
fc
fd
eb
ee
f4
ec
01
fb
09
f4
e9
0d
f4
dc
0f
ff
e0
ff
fe
02
2c
ff
0c
f1
0a
f0
0c
06
f5
1d
00
fc
ec
e7
ec
fa
f9
ef
07
e6
14
07
e1
da
fe
f9
0e
10
12
0a
02
00
14
05
f7
fb
f7
03
f2
eb
11
fb
0f
f2
0d
0d
fc
fb
01
13
f0
0a
ec
fb
02
01
0d
f7
04
05
0d
17
de
16
e9
f7
f1
15
19
f4
06
e5
07
ca
10
0e
02
f8
fc
fc
06
0d
d1
0f
04
f6
ef
dd
cb
2b
03
f8
fe
fd
1a
bc
0c
fa
1a
f3
e7
d6
f1
d5
2b
01
c4
ef
f5
f7
1d
fe
2c
dd
15
1c
1e
03
f6
e8
15
01
f4
0b
05
17
f6
e8
05
fe
f3
f5
15
ee
fc
f7
f4
f5
f4
ed
09
01
ff
03
f4
13
d4
fa
e1
05
0a
14
0c
bd
f8
e8
e1
fb
11
03
bc
da
e9
01
fc
11
fb
01
e1
09
fb
21
ed
08
fe
12
e0
df
fb
cd
25
ee
f5
11
f0
0a
00
f0
f7
09
0f
f8
09
ed
21
02
e8
eb
06
fd
f3
18
f9
14
eb
f0
10
e8
03
f4
d6
f1
fc
f8
f7
e5
05
0b
f9
01
0f
0f
fe
f0
04
fe
04
00
12
01
ee
05
05
ec
0f
f1
0f
0a
fc
06
fe
0c
e2
0c
ee
07
f9
01
ea
ed
fb
f6
ed
f5
02
f4
14
05
f2
fa
07
fd
e1
f8
df
f9
fd
ee
05
de
ed
fc
f1
00
fe
dd
ed
f9
f8
01
00
f5
da
f6
f0
c5
ff
ee
f5
02
f7
00
fd
f7
dd
d2
12
da
da
11
01
e6
f6
ff
05
ee
f8
03
f7
f9
db
ef
17
19
08
fc
0b
fe
e4
f4
e1
05
fc
fb
21
ee
09
e5
f3
de
0a
ff
17
eb
fb
f2
f7
ff
14
ef
f8
02
06
0d
fe
0b
e2
15
1d
07
ec
fe
05
0a
da
0e
41
f1
f0
c1
25
e2
f4
f1
e9
1b
ee
0b
fc
f3
ef
f4
06
0b
0f
d3
e6
1d
f9
0c
0c
08
fe
fe
ef
05
01
fb
f5
f0
fc
ee
fa
fa
f6
f3
1c
f9
05
15
e8
18
e4
f6
d0
f8
00
0a
0f
f4
fd
fc
fc
f0
03
07
07
e3
f8
fe
00
e7
ee
fb
05
ff
fe
15
03
10
ed
04
fa
01
0a
ea
02
f5
11
e9
14
01
08
11
26
15
f3
f7
fb
f7
01
01
0f
ff
ed
f2
00
fa
fa
ed
06
0f
f4
fe
01
ff
f2
f6
f1
f2
08
e3
15
ff
07
01
0e
11
f6
f7
f8
fd
06
0b
1b
11
e8
11
05
f1
f9
f6
02
18
e8
16
04
19
e8
0c
da
f1
03
05
bb
09
04
0a
fb
f3
09
01
ea
04
0c
f3
e4
fe
fb
f3
de
18
04
0c
06
e7
fc
01
e0
08
e5
ff
d7
f6
0c
16
fc
fa
e2
18
08
0e
f6
f2
e2
1c
d5
1f
2b
12
f2
dd
f5
f7
ea
08
14
1d
e3
11
ef
1a
fc
0e
08
05
13
fa
0a
0f
04
07
fd
0f
e1
ff
fe
0e
e8
08
06
15
04
04
15
e0
03
09
08
0b
fb
02
01
17
f7
11
e7
f6
17
00
03
2b
e6
e2
f1
b3
22
02
50
df
1f
f4
eb
e4
f0
fc
25
10
ff
e1
ec
eb
3d
f2
21
eb
f6
0c
06
fc
f8
f7
03
0c
fc
fc
0a
04
fb
ed
ea
03
f8
f4
fc
02
fb
ed
e7
06
0d
e5
03
f2
fd
f4
08
06
d8
ff
d3
f3
f4
03
0c
fe
fc
07
00
12
05
fe
d2
f4
fb
f3
16
fb
f3
f0
f9
f5
fb
eb
fb
23
ff
1f
f9
fb
ff
dd
08
0e
f8
fb
d4
f8
17
fe
e0
06
ef
11
d8
07
06
00
f8
fd
f7
0c
ef
eb
1a
fc
f0
0b
fc
f3
f9
e4
de
e9
f2
0a
fb
f3
0d
f5
1b
f0
ff
f8
fa
18
ff
12
03
0c
14
29
02
eb
06
e9
06
0b
12
f7
00
d8
0e
1a
ee
fb
fe
fc
f5
27
02
fe
00
fa
0b
fa
e1
0d
ee
15
dc
14
03
1f
08
f1
fe
de
18
1a
fa
f1
de
fe
f2
09
e1
00
f8
f6
09
f6
f5
02
e9
f0
e7
ff
f7
da
ff
fc
fb
f3
01
e4
db
e3
f5
ef
ef
ee
09
f8
03
06
dd
ea
d4
e6
e0
0b
ee
ee
f6
29
0e
fe
fe
0d
17
f5
f5
06
0f
f5
09
03
15
02
ec
2a
fc
f6
23
f3
22
f8
f9
1b
0d
12
f2
f6
0e
0c
f8
c9
dc
08
18
0a
f0
ee
f4
f3
d9
f9
0d
fe
c9
d5
07
07
df
17
fb
16
e4
22
f7
01
f9
f5
f0
f4
0e
d6
f3
25
ff
07
13
07
0e
02
d3
03
f4
f4
ef
01
ec
fa
fc
01
f1
f7
05
fe
09
0c
f4
13
f5
fe
bf
f9
fb
e6
fe
16
0e
0e
1d
0d
13
07
e9
15
01
f8
13
19
06
0e
f3
0b
04
02
13
f8
0a
15
09
02
1b
02
e0
f2
04
17
c3
02
17
f7
06
f8
ea
13
fb
d0
f2
da
d0
e8
08
f8
e0
fe
0d
17
f7
f2
e4
dc
d5
f6
d3
e6
f5
05
ee
0a
f9
15
1b
fb
f0
fc
02
01
18
f0
fd
ff
0d
0f
0b
07
f9
f9
0d
18
fa
e9
fc
de
0b
fc
0b
11
12
00
f7
21
ff
3a
fb
f8
02
f6
fd
04
40
0a
ef
03
fe
0d
ed
f2
ee
09
e9
02
08
f8
eb
f8
1e
f1
06
2a
20
ff
03
db
06
e7
17
0a
09
0e
f8
ec
03
01
fe
0a
ea
05
05
08
05
ee
10
f7
14
0b
fd
0c
01
16
fa
fb
f5
f0
fd
d5
06
08
f9
09
ff
f8
f1
ed
f6
16
eb
1a
fe
0e
c5
ef
07
de
17
c9
f0
f6
f7
f2
01
ee
cb
0d
cc
0e
0a
ce
3d
27
c7
f6
f4
ed
33
c7
2f
ea
0f
f9
10
e2
bd
eb
31
15
bb
de
ed
e2
33
3a
4e
f1
e3
31
d5
10
d6
f8
04
fe
f9
f4
12
02
e7
f1
ec
00
e8
08
09
ed
04
ea
e0
eb
fb
08
02
0f
ca
f8
ee
04
fe
f9
fb
f9
0a
2d
13
45
f0
ef
e4
eb
08
23
e0
02
f3
10
fe
08
f6
ef
d8
11
df
17
0a
00
f4
0d
ec
04
1e
c9
37
f6
00
fa
f9
f8
04
15
f9
0a
11
08
1f
e2
02
ef
17
f6
fd
17
18
08
fa
ea
04
e5
15
07
11
fb
bf
03
d5
06
e0
de
05
0f
ff
02
16
03
f2
f3
ef
0f
06
fa
ff
fc
11
09
01
ef
07
08
19
10
e0
08
f0
12
14
0b
f6
0e
0d
04
e2
14
03
fd
ee
ef
da
f3
c1
e9
e5
ea
18
f5
15
07
d3
ed
07
08
e8
c6
cd
e6
ea
e6
09
fa
04
06
e4
26
17
04
d0
f6
e6
d8
18
15
16
f8
00
00
f0
00
da
e6
f3
fd
e4
fb
0c
ce
0c
2c
fe
ed
07
17
07
fe
db
d8
15
f7
08
0d
f4
f2
de
d2
f0
09
05
fb
fc
18
0c
0d
ff
c4
06
08
10
f1
03
10
e6
fd
0f
ef
f8
01
19
25
dc
27
f4
11
12
00
ee
fa
9e
f7
e6
1b
56
02
f4
df
04
db
da
fb
eb
30
e1
f3
eb
1e
02
03
37
0f
13
db
09
e8
0a
04
1b
17
07
dd
d4
08
07
f0
02
ff
fe
0a
f9
e0
fd
fe
0a
07
e7
14
ec
0b
0c
12
03
01
04
11
0f
14
e6
fb
01
ef
17
09
e1
01
00
12
15
f0
e8
08
01
f4
f8
03
04
0c
04
18
f0
f9
25
e5
23
04
0b
e6
05
fe
06
0d
04
1b
ea
f3
ec
e9
dd
f1
00
ea
03
f8
0a
e5
0a
fd
0c
0e
e7
0b
05
05
f9
f0
01
f5
19
f4
f8
e5
14
13
12
0d
f8
f5
de
ea
fd
09
fd
f3
0b
04
f9
ee
1a
0b
f0
ff
e9
f5
f2
0f
f3
0d
1d
08
f5
03
fe
d3
f6
0e
17
0b
09
f8
f1
02
12
e8
fc
f1
f0
19
fd
07
08
fc
1c
f4
f7
11
00
1d
ef
03
fd
ef
f6
0f
f3
2e
ed
19
17
18
e9
e3
de
26
f8
47
16
3a
bd
e6
12
09
cd
07
08
1a
e8
15
1a
13
01
1a
ff
0d
1b
f6
05
ef
10
0c
02
0b
eb
f1
d4
0d
02
06
01
10
02
07
0a
dc
18
00
0e
0b
e3
ff
03
04
19
16
0e
fa
11
f5
fc
00
db
df
e8
c7
0b
09
4d
e8
16
01
ff
0a
d9
05
fb
09
db
ed
ef
da
26
09
1f
fe
f2
ff
f5
fb
dc
e7
0e
e2
10
04
0c
03
ff
f6
e6
12
f9
f1
09
f7
f9
0e
f1
03
02
07
01
fa
fe
0a
f3
0f
fc
04
f6
fe
f1
f1
10
e9
08
25
07
14
ec
f2
fe
fc
15
fb
0e
e8
00
fe
fe
eb
fc
fe
ef
19
0f
0c
08
16
f3
d2
17
fb
03
07
fd
ae
09
08
f7
ef
f0
08
00
f0
12
f9
1c
0d
06
07
01
ea
0b
fd
ed
06
00
f5
07
f2
cb
ec
f5
00
f6
eb
f6
c6
1a
fc
ec
ec
ed
0a
11
11
e9
2c
0b
25
e2
f8
04
e3
01
f3
e1
02
05
ee
18
f6
ef
10
f6
04
04
29
df
19
01
04
f7
02
d8
05
f4
13
dc
16
13
2a
de
e5
fb
c5
0c
f0
e2
ff
ea
f2
f0
05
fc
1e
da
05
fe
e7
0a
db
eb
08
02
0b
e7
e1
00
04
ef
f4
43
0a
fd
f8
e8
e8
07
f4
fb
ef
d8
f4
fa
00
f5
e1
f4
00
e7
e7
22
d9
fb
1b
05
0f
1d
e8
f4
0c
1d
e7
14
fc
fa
1e
07
2c
e9
f2
3d
f0
03
25
04
1b
0d
08
f4
f9
00
12
f7
fe
f3
06
17
12
09
fd
e2
05
e6
07
fd
15
f3
dc
f1
ff
fb
26
04
07
db
fb
03
09
27
0b
02
0b
15
e8
0b
e1
f4
17
2b
20
f4
eb
ed
00
02
e2
01
05
f7
17
02
05
07
fe
20
fd
08
0f
f8
1f
f2
fc
cb
f9
f7
f5
22
fb
ff
1c
1c
0f
01
ec
e5
f5
0f
f2
0b
f4
1a
06
04
ef
03
fb
0a
0f
f8
04
0b
0a
02
f9
fd
f3
0b
05
f9
ce
fe
0f
04
00
fc
10
fb
fa
f2
e1
0e
14
0b
04
08
18
f2
08
01
f2
fe
f3
03
0d
ce
e2
1a
02
fb
1f
f7
1c
12
fc
fd
e5
f2
1a
39
fd
ee
03
0a
0a
f2
f4
0a
13
04
02
f4
e0
07
f5
22
fa
08
14
01
eb
f6
07
f9
b8
05
08
e8
ec
0d
0f
fd
22
fa
e9
0c
03
07
fa
05
03
08
fa
f5
01
e7
04
d8
fe
0d
f8
07
08
e5
f7
fb
f2
fe
f3
fc
0d
fc
12
13
fa
04
0f
f5
10
ff
fb
14
08
07
f5
10
ff
fe
fa
19
fa
05
07
0c
01
04
e4
f5
fc
0b
f4
12
08
f9
fb
0b
01
fc
17
0a
0e
fc
03
ed
eb
0a
04
f8
01
f0
04
06
02
f7
0b
cf
f3
fa
f0
a7
df
fd
f3
fc
03
ef
8e
fe
ff
ee
f6
01
f2
f9
f3
97
ff
d7
f7
fa
07
07
fc
04
24
00
0b
d7
f6
02
fa
f1
ff
df
02
05
0c
0e
e5
08
00
01
fd
f7
0b
f8
ef
01
f9
e6
0a
f2
1a
ec
08
e9
05
00
0e
00
f0
f2
38
08
d4
06
f3
f2
f0
f5
07
ce
f1
fc
16
0e
06
12
03
f2
f5
ee
1b
03
10
da
06
b1
ee
16
bb
1c
0d
f6
de
03
e8
1b
de
e5
e7
0f
11
18
fb
11
fc
d5
08
0a
18
01
0e
10
06
df
fa
0a
f9
05
e4
e6
01
ee
f3
ed
ed
02
f5
06
06
f4
15
fe
03
0f
03
fb
f9
0d
18
08
11
f6
01
fb
0d
0a
f8
07
0a
01
0f
17
11
09
f3
0e
08
fb
18
fd
ec
f0
f3
01
f6
db
09
fd
f0
d6
ea
f5
e7
fe
f1
01
05
f6
f7
05
fc
f8
f5
0b
fd
fb
f9
f8
fc
ca
ea
d1
05
0c
ea
00
dd
f5
02
f8
f3
fe
06
f5
ee
da
f7
be
01
15
fa
f3
fa
e6
02
ef
01
e1
01
f4
02
02
03
13
f6
f5
0b
f8
da
05
08
11
0b
05
f8
12
06
ef
e9
14
0d
ff
01
fe
0a
05
f9
17
f6
04
0c
fb
26
11
d1
f8
1a
34
1b
d6
03
df
15
dd
0b
f8
ff
08
fc
1e
d7
15
f8
0a
18
08
16
07
09
09
fe
18
05
17
f8
fe
f1
0d
ff
02
0c
19
08
e9
f3
13
0e
f4
0b
02
f6
12
fd
ff
09
ed
04
14
f6
fe
01
07
fd
0d
06
f3
04
18
b9
16
22
08
f3
f1
0f
df
19
f0
0d
10
ea
2a
fa
21
f2
01
00
f6
1a
f3
2e
f6
0d
2d
de
19
0c
0f
ee
0f
fc
df
00
12
03
fa
f7
07
08
07
f7
0e
fc
fd
08
02
f3
f1
fe
07
02
0d
ff
09
09
0b
05
0d
f1
0e
e0
0d
0f
f5
f3
f6
03
f5
e8
00
fd
fd
10
01
f4
07
0a
fb
f2
fd
02
07
0e
fb
ee
ef
f4
04
fe
08
f2
f6
08
f0
d4
0a
03
e8
e8
fe
05
03
f0
f4
ea
cc
f7
0b
ff
08
06
00
04
e3
ed
f8
f5
fc
f3
f8
fb
09
04
f6
0b
02
f2
e4
17
0b
24
f3
03
e3
12
fe
03
22
0f
04
f6
f7
e3
e9
1b
1a
13
ee
12
dc
14
23
ed
03
f8
20
fb
03
01
0a
f6
fd
e9
fe
13
ec
20
f2
fd
fe
0b
0e
18
06
f7
ff
0b
f9
09
f3
fd
03
11
13
0f
16
03
1b
03
00
de
00
f1
fb
08
11
f8
e8
ea
1e
ed
f6
00
d7
10
f3
04
f8
ce
fb
05
36
e0
13
04
f2
ec
e2
fe
ef
e4
fc
fe
0b
fa
fc
f3
ff
fd
11
f6
f9
fa
ff
01
0c
10
fe
1b
03
fc
0c
ff
f7
fa
0c
ff
fc
f5
df
f0
f1
01
05
01
e3
ef
0e
15
f4
ee
f0
02
10
00
14
f1
0a
02
fd
f2
f4
12
0c
1a
fd
0a
fb
06
07
d9
0a
00
ec
db
14
d9
09
e9
d7
e1
fc
16
0f
ed
18
06
df
fb
16
05
f6
0c
21
12
cb
00
f7
f5
e6
ea
e8
e7
e4
fe
f1
09
17
e1
02
f5
fa
04
ff
0d
f0
10
11
f9
f4
fd
f1
f5
f2
e7
00
0a
02
f8
1d
f2
f2
21
0c
13
13
07
ed
ee
e2
03
f3
fe
08
16
01
ff
09
0b
f7
14
f0
0d
09
0a
ef
f5
fb
fc
0c
07
01
09
03
21
00
11
ee
09
08
fc
ea
04
f8
f7
03
00
f1
da
f3
0c
f0
f0
e8
ef
01
fa
06
07
ea
0b
fc
f9
08
f2
f4
e4
10
fa
eb
f0
e2
f5
f5
e3
1f
ed
f4
f9
1f
fc
fd
0e
18
f8
0c
12
18
16
0d
30
13
14
e9
f9
05
e0
00
f5
1d
f3
09
03
f4
07
01
c4
d7
0a
0f
14
e8
f6
ed
12
cf
07
23
ee
03
f7
f7
e9
ef
04
fe
14
e2
17
e6
ff
39
fb
1d
04
f7
eb
f5
f6
f4
ee
03
f2
10
fa
0f
06
03
06
dc
fc
f9
0d
0b
09
08
fb
f3
f6
fa
08
02
03
ef
03
ef
fb
f1
f2
10
02
03
0d
f9
0c
18
08
08
fc
0f
0d
11
0c
f1
17
f3
0c
03
05
fb
1b
f8
00
f5
f6
06
03
e8
0b
04
38
05
dc
28
e7
ec
f8
fb
2c
e9
f8
f4
dc
cf
eb
2b
18
07
f4
0e
15
ed
cc
f8
16
fa
ed
fc
e6
12
0d
d5
10
0b
bb
06
f6
f7
f2
04
20
16
f1
f1
0b
06
f8
01
fc
ed
05
00
f8
f8
f0
fb
f7
02
ff
04
fc
fa
04
ec
fc
fe
e4
0d
f6
00
fd
13
0f
14
fb
02
09
fd
fd
0b
0c
ee
06
0a
fb
0d
f3
05
04
e8
f7
10
e9
fb
ec
04
ea
f3
02
f9
00
fc
03
ec
fe
1a
01
f3
09
e7
08
02
e7
0f
fa
f0
f9
01
fe
0f
f2
10
01
ef
fa
f3
0a
02
eb
05
fe
ff
fa
0e
02
f9
0c
f7
f9
f0
05
05
f9
f9
f3
04
d2
01
05
f9
f1
0b
fb
1b
10
f0
fd
08
05
ee
d6
b6
12
04
2b
02
fc
16
c1
14
fe
04
08
f8
d0
00
d1
0d
dd
dd
e3
00
e8
0a
e8
26
ff
0c
12
f1
03
eb
f5
ff
fa
f0
fd
0d
10
f8
06
0e
06
fa
f6
f1
f8
f8
f9
ec
e2
e9
04
05
0e
e8
07
f1
f3
00
fd
fe
0c
f0
11
09
d0
ff
f6
ff
ff
f5
15
e8
e1
fc
06
09
0c
15
0b
e3
fd
e5
0d
fe
01
e7
0d
d0
01
f5
cd
0c
ec
ed
11
10
fb
0f
e0
e5
eb
03
f6
fb
f7
14
02
b7
f0
0d
06
f1
15
1b
0d
d9
f1
14
e7
01
df
f8
03
0f
00
e6
00
f4
06
0d
01
0d
fd
fb
f2
fb
0f
02
07
e5
0a
fe
ec
f3
f3
ef
0e
09
f7
02
12
f4
fa
f2
02
09
0a
f2
16
e4
ed
f0
ee
fa
03
f9
f1
0f
fe
e6
ed
df
06
e8
f2
00
fb
ff
05
04
e0
f8
07
f9
ea
f7
e7
12
fb
ee
f8
e6
f4
f0
05
fb
ec
f2
f3
e4
06
09
00
e0
ef
02
ed
ff
d2
c0
15
0d
f9
f6
f1
ef
dc
f9
fd
e7
f5
f6
07
00
1c
0c
f9
0b
f7
03
dd
e8
14
08
08
08
02
10
ec
fd
e4
13
0a
fb
04
f9
ef
de
f4
11
f2
15
01
f4
0e
f2
0d
e1
16
21
f3
eb
fc
08
0c
e4
02
4f
f8
0a
d4
15
e0
ec
f9
f3
0c
eb
0c
0f
0c
01
fa
e0
ec
03
fd
ee
24
01
ec
f2
f2
11
f6
fa
f1
f4
05
d7
02
02
f5
16
13
01
f9
03
f8
fa
f6
fd
03
03
f2
f7
07
f6
0b
f4
f6
0a
f8
01
f5
f5
06
ec
ec
f6
eb
0a
ed
21
f4
01
e1
09
2a
0e
10
f8
07
f1
f5
f4
f1
0c
fd
20
f1
06
03
ee
0f
0b
1c
fb
0e
11
f9
e7
02
fd
fc
f1
01
05
ec
04
ef
15
fb
ef
03
0c
04
ff
00
06
f0
01
f8
14
02
07
0d
10
06
0b
06
0a
08
f6
01
f4
fc
f3
0a
ea
f4
f7
ec
02
15
f2
0e
f2
07
f7
fd
05
04
fc
e9
eb
f3
14
e4
dc
e7
19
09
10
fd
ff
e4
c9
e5
0d
f7
f4
06
01
00
cc
f8
f6
ff
e5
db
d8
f9
e9
02
fa
fa
f9
e8
fc
2c
1f
0d
f5
02
e3
1a
e4
13
07
1d
11
e9
ff
df
f0
29
15
1c
f2
03
f9
1c
04
f6
01
ef
1c
0d
05
07
0a
00
fc
f4
02
08
fe
0a
f3
fc
f6
09
02
08
ff
04
f8
15
0f
0b
fc
01
09
fe
f4
11
00
f8
0f
0a
0c
dd
de
0b
fd
fd
1b
08
12
e9
22
e0
fe
f6
e0
fb
30
f9
f5
e4
f5
f1
34
e1
2c
f2
07
f7
e3
02
ef
fb
05
08
0a
08
04
fc
09
08
04
10
fb
fb
fa
f2
04
e5
00
10
fc
08
03
ef
fc
fd
16
09
eb
13
ef
ef
f6
19
02
f5
fa
1f
1a
0f
01
12
c9
f4
02
fc
0c
f2
02
e5
fd
e0
f3
fb
05
1f
f7
08
f1
09
07
dd
fa
02
0f
dd
0a
fb
19
f5
d5
e0
08
12
cb
02
14
0b
ee
e6
ff
fd
f5
03
0e
1f
c7
01
fe
fc
f5
d8
f7
f1
00
0c
f8
00
f3
f7
fe
fc
12
02
fb
f6
9d
16
01
f8
01
01
e9
03
13
f4
f2
fd
13
e8
0e
f0
e7
13
da
07
f0
f8
fb
11
dc
03
f7
06
0d
f9
dc
11
e9
f4
d7
09
07
0f
00
f5
09
de
fb
0b
03
e8
e7
00
fd
10
fd
0b
13
f6
0b
eb
f1
fc
f4
e7
e8
e2
f9
de
fb
fc
01
e2
df
df
fc
e8
fd
fc
de
03
f4
00
eb
f6
f5
f2
fa
f5
e1
f0
ed
01
f0
21
19
ef
fa
f3
2e
fc
f2
16
0e
f9
fc
0b
11
10
f1
27
ff
0d
ed
e1
14
fe
ff
ea
14
03
ee
05
ed
eb
fe
e2
fd
15
06
0c
d9
f4
f9
08
da
08
10
f7
06
cf
00
e6
ee
18
01
14
d2
02
f6
08
f0
04
f5
f2
fc
1a
f4
15
03
03
e7
07
17
15
f8
09
fd
f8
c6
f5
f8
0c
0b
08
fd
06
e9
ee
03
0e
ed
f3
e3
0c
ec
f9
f9
fc
f9
13
12
00
00
09
1d
02
04
f2
18
f9
08
05
14
04
0f
0f
0b
f2
fd
10
0d
13
05
09
10
ff
06
0a
15
0d
df
fc
0c
be
de
d5
e8
23
fe
e1
01
dc
e5
c7
1e
09
ea
17
16
2e
d2
cf
f6
fa
e5
d1
c4
ef
05
f1
de
fd
f3
04
17
05
f3
f9
01
0e
1c
ef
0a
fc
01
f8
0e
12
f1
13
09
05
0b
f5
01
e8
08
ea
fc
01
13
0a
ec
f7
f1
26
f8
04
00
0b
07
07
3a
fe
f5
f2
00
0a
f7
fe
f6
17
f0
0b
ff
de
fd
05
1d
fb
fd
0e
fc
f9
01
e2
ff
fc
06
02
0b
f1
08
fd
03
ed
f3
0d
dd
f6
f3
02
0a
fb
03
0d
ee
fc
07
f6
fe
fe
15
06
10
fe
00
da
df
0f
fe
01
0c
ff
eb
e5
03
0b
eb
0e
ee
12
d6
e3
07
e2
01
e1
ee
fc
01
f1
16
18
e2
07
e2
f0
04
dc
de
07
e1
35
d5
d4
25
f1
16
f7
27
08
09
d5
f9
e9
25
f6
ba
f4
e9
ea
24
1b
25
ef
0f
0b
f0
08
f4
06
fa
f5
09
e7
06
11
e3
0b
f8
e9
e8
f4
e7
f9
fa
f1
e7
de
06
0c
03
06
d6
f7
02
06
05
ef
fa
03
fa
15
08
2c
ec
fb
f7
fe
ed
25
10
0d
f4
14
08
18
16
00
d9
f6
f2
10
1c
02
f4
04
f1
f5
15
d9
07
01
fb
01
0b
fa
fa
f7
e7
e9
1f
0a
16
e6
13
fc
d7
fe
ff
24
0e
2b
f4
00
f8
f6
19
f7
1c
dc
c1
f5
e7
f2
df
f4
0b
12
fa
ed
f6
0e
00
e5
ff
fd
f7
f5
fd
f7
f4
f9
fe
ff
01
fa
0a
0c
eb
0f
02
fc
00
0e
17
f4
08
00
ce
14
00
e6
04
fe
ed
ff
c9
f8
e2
09
09
f8
03
f2
da
fe
f2
0c
f2
d5
c5
f8
d8
f7
08
fa
f2
f6
ce
f8
08
fe
c9
ea
ce
c5
0e
05
df
f4
f3
ea
e3
fb
04
f1
e7
c9
d8
18
f7
e6
f6
0b
ed
f5
10
0b
e6
ee
d6
00
11
04
15
09
03
ee
f2
cc
ec
14
05
fe
0c
1c
06
e3
f6
bf
14
12
11
fb
f9
ff
fc
17
17
f8
0f
07
fc
db
e2
19
f2
00
05
f9
eb
f9
d2
1d
e4
24
26
f9
ed
fc
fe
d2
e5
f3
07
14
e9
e6
e9
17
f8
04
f9
07
1a
03
fd
01
f2
05
07
f5
0f
07
fa
fc
fb
08
d0
ee
09
f9
f6
f5
00
f3
08
14
0c
19
f1
08
fb
ff
02
f0
f8
e4
03
08
0b
0e
0d
f1
05
fb
ef
0e
10
02
12
f9
f9
00
01
f3
fe
f4
0a
19
fc
03
ef
0f
15
d1
13
00
29
fa
03
0a
08
04
0e
05
e8
05
01
eb
eb
ee
e4
f7
0b
f5
fe
d3
fe
04
f9
fb
dc
fd
f7
15
0d
05
11
01
0e
fa
f6
f6
06
f5
13
06
00
0f
f4
eb
f8
f0
d6
e2
0d
f1
ea
fc
f8
fb
01
12
f2
f2
e2
f4
0b
03
02
00
03
12
fe
f7
fd
fc
f2
03
21
14
f8
01
1b
fb
bf
e1
06
0c
ee
12
11
12
07
fb
07
13
f3
fd
f5
13
f9
fc
f5
03
cb
29
01
43
0a
01
ed
ea
f4
39
f5
3f
13
31
da
e0
0f
fc
da
fe
16
19
e9
0b
f9
17
fc
f9
ec
09
18
05
0f
01
ff
e7
f5
02
ff
f2
00
f8
03
07
e6
07
07
03
f3
f6
01
19
06
05
e3
fc
d9
f6
09
1d
07
f8
fe
fc
f7
e0
e6
ea
fc
f5
0b
0b
f4
e7
1b
f2
1c
07
e6
f9
1e
10
eb
ea
f7
da
43
f7
23
ef
f0
dd
bb
01
e6
03
02
04
06
07
fd
f8
fd
f9
0f
0c
f5
09
fd
04
ef
fb
f5
00
f6
08
01
01
07
01
06
02
e9
08
f2
0c
e9
e5
0e
09
f5
1d
09
05
fb
08
df
f3
0d
08
08
eb
e7
ee
0d
f0
00
fd
13
17
f8
02
fe
21
fe
d8
0c
f7
0e
ee
09
b9
14
ee
ea
f2
f8
06
ff
05
fc
e8
ec
dd
06
0b
fb
14
10
1a
d9
18
0c
ff
00
fd
df
e8
e4
f7
fb
de
f3
d6
00
f6
0c
02
f6
ee
03
03
e9
1a
f7
13
eb
ef
09
ed
08
eb
0b
fb
1f
d5
07
0b
f2
06
ed
f7
f1
ee
db
1b
0e
07
f4
e1
da
f3
fd
06
d2
1a
e5
25
e9
ec
f9
d7
0e
01
00
f4
fb
d9
0f
1a
fe
1d
ee
f9
f7
fb
f6
fc
02
f7
de
ed
f0
f5
e6
f9
01
f5
fb
f8
eb
ee
f9
ef
f5
f7
f4
f3
ea
f0
e9
f3
fe
e6
e0
0d
d5
24
2e
18
06
ff
f9
f3
33
12
0d
fe
1a
f2
f6
f4
f9
12
02
23
ef
0d
0d
fe
0f
14
ee
00
09
0d
02
f7
11
01
e4
04
fa
0b
0b
f4
e1
f7
00
13
e5
28
05
0d
ea
f1
f7
ef
de
16
1a
1a
ea
f1
fc
08
fe
f8
10
f2
20
28
1a
02
f5
f8
f9
f6
0b
00
04
f4
0d
e0
b8
dd
0e
0b
fc
1c
f1
fe
f9
01
15
02
f7
f3
fb
10
fc
f4
ed
0c
23
09
0c
03
f6
f9
00
ff
fe
f5
19
fc
ee
e9
11
09
02
0c
ff
fa
13
fb
0f
11
f1
fc
28
f0
0f
f9
00
0c
12
e7
f2
f1
ec
f2
1a
39
df
da
0d
e6
f3
c6
09
14
e6
1f
ff
18
f7
ea
03
11
fe
ea
cc
f2
07
f8
05
04
f8
ee
09
f4
07
01
09
24
1e
fc
fc
05
16
09
0d
05
09
1c
0e
07
05
ea
08
f4
0c
0c
e8
14
ef
01
f9
0a
0b
db
0d
0d
f6
ea
fa
f8
fc
10
e8
f9
19
fc
0c
fb
fb
07
0c
f0
f6
ef
fc
0c
fe
07
f7
f0
0d
01
f2
06
f2
d8
e8
14
05
ff
17
f8
15
0d
06
14
ed
03
ea
fe
08
fb
00
03
0f
f4
12
f7
1b
0a
02
0b
15
f6
02
e8
e6
3d
f5
e3
0d
07
fc
fa
0c
f7
fe
0c
fb
ff
01
07
02
ec
f4
05
ff
04
fa
15
00
ff
f5
0b
e7
f9
05
eb
b3
34
f3
fb
f1
e7
17
e2
f3
f4
1c
f7
e8
e8
f0
f4
cc
05
e1
ec
e1
fa
1e
0b
2d
f3
f1
10
d7
03
e9
05
05
14
cc
ff
f4
09
f8
ee
15
ff
0b
05
f5
04
f0
0a
de
11
e4
f6
f4
0f
ee
1a
07
ff
06
0c
03
0b
f6
17
10
cb
f3
f2
f0
e5
ee
1f
b0
f6
f2
fd
09
fe
0a
fc
f5
03
f4
17
f0
07
ee
19
c0
f7
05
cd
2a
f8
f7
fd
06
12
19
e3
ec
f0
12
e4
04
ec
12
e7
e7
01
00
22
e3
0e
2a
f6
f2
f5
01
f1
f2
e6
e3
ff
f8
f2
d8
f4
10
d9
f4
0c
f4
fc
00
f4
04
0a
fd
11
f9
03
05
17
f7
ff
ff
0f
fd
01
f8
09
0a
fb
06
07
0d
05
07
fe
e6
fc
fe
02
10
fa
fa
11
04
f7
f9
08
f7
ef
03
fc
01
e3
de
07
fe
f1
f3
0c
fd
f3
fd
fd
fd
03
ef
02
e0
01
d4
e3
f1
fb
02
05
ff
0a
f0
f3
fd
00
f6
f4
d3
f8
c7
03
fe
ee
eb
0b
e9
00
ec
12
ef
0d
01
17
1d
27
fe
da
fc
08
f8
f1
0a
0c
00
0c
fd
02
16
06
ee
fc
06
12
07
06
03
0f
fd
e4
11
04
fc
f9
0c
01
11
c0
f4
16
3e
2d
f1
0e
ed
0a
0d
03
1f
04
f0
0f
35
02
13
e6
1b
1b
1e
22
16
09
1a
04
01
ff
1f
1b
07
d2
f8
05
ee
0c
1e
0f
02
fa
1a
07
de
05
04
02
f8
15
02
ee
0b
f1
16
f6
0b
01
f5
fe
02
f8
07
fc
10
97
01
2f
fd
f4
fe
07
e5
23
fb
19
0f
02
19
07
0d
ff
02
e5
0c
18
10
12
ff
0a
28
e3
16
f8
2b
f4
0a
fc
dc
05
0d
14
fe
e6
22
12
02
fd
e1
fd
ed
0a
f0
fd
06
06
f5
f8
03
11
11
03
00
0e
15
02
0f
f6
05
fd
de
eb
ed
04
ff
f4
25
00
fb
11
00
fc
0b
12
ef
16
fe
04
fa
0e
f6
f8
f8
f4
ef
03
05
03
f3
09
02
b8
0b
00
f2
e4
03
13
f7
04
0a
ff
f3
fd
0c
09
08
01
04
06
ec
e4
03
e8
0d
de
05
01
01
f1
f2
0a
f6
0a
da
fc
09
02
f4
f9
dc
08
03
fd
0c
12
fc
04
04
f5
dc
07
15
1d
00
25
ea
25
fa
f4
f5
f7
13
0b
1c
db
f2
10
f4
f4
f5
0c
05
22
fa
01
10
1c
f8
23
02
f9
0c
03
04
06
fd
0d
f4
fe
10
0e
1e
fb
fb
1a
f5
13
f2
09
22
1e
08
f9
dd
fd
1e
fc
04
e1
e0
fd
fe
f8
01
da
1b
fd
35
fb
29
1f
f2
eb
e8
f2
03
0e
08
e7
0a
05
fe
0a
06
e4
15
f5
14
fb
ee
19
07
0a
e7
1f
fa
f5
0b
fb
10
e8
00
fc
ef
05
08
02
f0
0f
12
0a
ff
fc
04
0d
f9
fa
f5
ec
07
f6
ee
f5
00
0b
fe
0b
f8
f4
04
16
0b
18
ff
00
f0
e4
e5
fb
02
cf
14
ea
12
ef
d9
dc
06
f3
f1
ef
02
0e
0e
00
12
0a
f2
f0
32
04
d3
19
fb
ea
db
dc
08
f6
15
f9
ea
0b
fb
fd
08
e0
17
02
eb
fa
f1
0e
f1
03
05
1c
0d
e5
14
df
f8
ff
0d
00
07
ea
f2
0f
fa
0c
17
fb
ff
00
db
27
fc
fd
15
13
fe
09
0a
ff
f1
11
f8
0a
10
f7
02
06
fd
05
02
04
07
0c
01
03
16
0d
12
f3
09
eb
08
fa
f8
fa
f9
fa
f9
e7
fc
f5
f3
fd
f3
f9
04
09
0c
08
00
fa
09
fe
f4
06
07
f0
f8
03
f6
06
ed
1b
f0
bf
13
f3
f2
fb
24
f2
f4
fc
17
e8
f2
0b
1f
11
ff
1b
22
14
fb
ea
08
fb
09
ec
f1
fd
08
f8
f9
e9
0a
c8
ca
08
fb
04
fb
0c
fb
fb
f0
17
0b
02
fc
fb
0a
02
d9
0e
f9
1b
e9
07
f7
ff
15
0a
0a
f6
03
2b
f2
f2
07
fb
f5
f1
19
f2
19
fb
04
f9
cb
05
f9
1a
e5
1e
15
fa
ed
f5
01
f8
0f
f1
e6
ff
17
f5
eb
fa
fb
e8
00
f6
ed
f5
1f
f4
fe
12
34
16
fe
1d
01
14
e9
11
00
0c
f8
1e
0b
05
09
f2
02
00
04
10
13
06
18
b6
2d
f4
0c
f8
f6
4d
e0
fb
e2
e0
ee
f9
1f
22
03
0d
1a
06
0d
c8
00
ee
05
04
fd
e7
13
f9
c2
00
03
f0
13
fd
13
fc
fa
05
f9
f9
f7
fc
22
f4
ff
02
f3
0f
05
f6
17
ed
ec
06
0c
fb
07
10
eb
0c
f2
fc
f8
ed
13
fc
11
fe
17
01
0a
ef
fc
ed
12
fe
08
06
e9
fb
07
f2
08
f8
f9
05
03
f7
f7
01
fd
f5
fb
f3
f4
06
ef
fc
0d
0a
04
f6
25
fd
0d
f9
e1
f3
f5
fe
ff
0f
e9
f2
f6
fc
14
f8
0d
01
07
09
fe
f1
0e
f7
f7
ec
06
03
0e
06
f2
f6
f9
f9
f1
fd
fd
f4
f8
f7
fd
e4
0f
0a
0f
e7
fc
06
16
fa
fa
0a
f4
f1
f0
f4
b5
fb
27
fe
ea
d9
30
ed
2e
ee
11
02
06
dc
02
e6
f8
01
f9
ee
dc
e4
14
d7
2e
e5
0b
00
f6
0e
e9
14
10
06
e1
f7
eb
13
f9
02
0c
f6
fb
0b
f3
fa
05
fc
00
01
fa
f4
f6
00
fc
05
f4
fc
0b
fe
08
ec
f7
08
05
e3
f2
ff
f9
eb
07
07
e5
f5
00
f9
13
00
1e
16
e2
f7
05
22
15
00
fa
07
e0
fb
f2
d6
07
f3
0c
ff
1a
02
13
00
d7
e0
19
09
05
f5
23
eb
e2
e2
1b
26
f9
1e
25
fb
d4
f9
01
df
fb
e4
e0
f7
f7
f0
d9
1e
fd
fd
05
ec
f0
04
02
11
16
fb
fe
fe
eb
fa
05
f1
06
12
f3
f3
07
02
07
f8
09
fb
f1
11
fc
f4
f9
f5
e2
ed
f4
ec
06
fc
f5
03
f1
ff
e3
02
08
06
05
dc
fa
ef
f1
fa
e4
f4
ea
ea
ff
f7
fe
fc
10
05
fd
0a
e1
07
fe
00
0b
fc
f7
fb
01
01
f2
ea
eb
f5
15
ea
da
d8
e8
0d
ee
dc
e6
e3
dc
e4
05
00
e3
f4
ec
1a
fb
0e
0a
f7
f7
02
ee
f7
f8
13
10
01
fa
fe
07
e0
de
d4
06
0f
0a
fe
ec
07
f4
f1
41
f9
19
00
ff
f2
f9
0b
e8
ff
1c
fe
f5
fe
0f
04
06
06
15
f4
fc
f6
30
04
f3
f4
fa
0b
04
1d
18
01
00
f5
0d
f5
0d
23
01
0b
08
fe
01
00
03
fc
10
f4
0a
ff
d1
0a
f7
13
1a
0d
ee
f8
e6
fd
04
04
1e
ec
02
04
06
f7
f0
f3
03
f0
0b
ec
0e
04
04
ee
fb
e0
12
ec
09
e2
17
08
0f
fb
0b
fe
fd
04
12
04
fa
f7
f6
e4
ff
f2
14
f2
09
f6
f5
f9
fd
18
f9
02
05
05
f8
fb
f2
03
f7
05
08
fa
e6
0a
03
fa
06
10
16
f0
02
f7
14
ff
f9
f6
1b
fa
f7
e8
f2
00
f6
f7
ff
f5
08
f8
ed
0b
f7
03
e1
04
05
f5
ff
18
f6
13
e4
0e
f5
06
17
03
0d
f2
fe
03
0a
f3
ce
d3
08
0f
03
ee
12
02
d1
db
13
09
ef
0d
fe
04
d5
f2
10
e9
e7
df
c6
f7
de
f7
fb
0f
f1
c6
fb
00
04
09
f7
02
ef
0b
08
19
f8
1f
01
e9
07
05
f3
0e
1d
20
02
14
f0
20
f7
ef
13
f3
16
1d
0a
f9
05
f7
02
fb
02
02
fe
04
12
02
05
1d
0a
0f
fd
13
03
02
f6
f1
f8
02
02
fa
04
07
11
f3
fc
09
02
f1
ee
0a
12
24
12
03
c6
fc
12
f6
0b
ea
e7
fe
17
eb
03
eb
f8
dd
37
d6
19
03
f2
f1
c0
fe
ea
14
fb
0a
02
ed
fa
f4
07
ff
02
12
fb
f6
dd
fa
06
f6
08
00
0c
0c
ee
02
00
fd
18
fc
fa
14
ff
04
e7
ee
06
e4
1c
11
03
04
09
07
d5
ed
08
0c
09
fd
fc
fa
e5
01
07
07
02
25
03
07
f1
13
ff
d4
fa
ff
fd
de
22
09
30
f6
cd
c9
fd
df
da
fb
17
1d
fa
e3
1a
08
dc
fa
27
fb
d3
15
02
e5
cb
d1
f3
f9
de
fc
f0
eb
04
f0
00
02
14
09
e9
fd
93
0e
f3
15
fd
15
e7
e7
05
ec
f0
fb
0f
f5
fb
f8
e6
20
d9
08
fd
fe
02
fa
de
0b
ec
f5
10
00
e5
0d
03
01
ea
11
ee
ff
00
ef
0d
f2
fc
11
0b
f9
ec
09
0b
1a
fe
08
20
0b
01
00
f8
f2
0d
e6
dd
f4
0a
f6
ff
f8
f8
ea
da
f2
f9
ec
09
02
f8
f2
e8
ec
fc
f1
0f
ee
ed
f1
f0
fd
e6
32
f4
02
25
e2
ef
f3
29
10
fa
0e
14
fd
fe
15
08
0b
02
24
0d
12
ea
e6
0b
f1
f7
e1
04
01
fe
f6
e9
fa
f3
ef
f5
f7
fc
00
f0
fc
16
f0
f5
08
f9
fa
f6
f0
f8
e8
ef
07
01
20
e3
01
f8
fd
ed
08
f3
fc
1e
29
fc
22
ff
fa
f5
f5
18
16
11
ef
0c
ee
c0
02
08
15
f5
18
10
fb
e0
ea
09
ec
f4
e5
f7
0e
f6
ec
f1
03
12
fc
0d
f9
e8
06
22
08
18
f2
0e
08
ee
12
0f
1f
fa
0f
00
fa
fe
0e
15
12
ff
00
01
f9
00
f0
0d
f3
01
fb
27
cb
f7
c7
f7
2f
ff
b2
f0
d0
e7
ba
18
fd
00
0f
24
21
d8
de
fa
e9
e7
d6
ad
fa
e0
01
e8
eb
04
16
19
0b
03
12
fc
08
f5
f1
ff
f8
0e
fb
0d
10
f6
03
fd
fc
12
fe
f5
e1
02
09
0a
04
f6
f5
ef
f0
f3
35
ec
06
11
10
fe
07
0c
fd
ee
e5
08
07
f9
f5
f7
09
ef
fb
06
f7
ec
04
14
02
fa
17
e2
0e
ee
01
03
f5
0b
e7
fa
ff
fe
f2
04
f3
03
f6
d4
fe
fa
f2
05
ff
fd
f8
f3
05
13
03
1c
df
11
0e
16
fd
13
de
ba
03
ea
f1
f0
f4
e5
ec
0c
17
ec
12
00
17
ea
f9
08
f1
f4
f1
0a
ef
f6
d1
0a
0d
f5
0d
e5
f0
17
01
c8
ea
05
1a
e5
aa
2c
ee
2d
07
2a
ee
01
ef
04
13
fd
14
e6
f4
e3
d8
18
cf
17
f3
05
17
d7
f5
f2
06
fb
fd
ff
dd
ed
0e
f9
06
f3
f8
eb
f5
f7
04
f7
f8
02
ea
f6
0f
dd
01
f4
f4
06
db
f9
08
13
08
ea
15
0b
32
e0
0a
17
08
f7
19
e6
03
e9
ff
2a
04
05
07
e9
fa
03
25
11
07
e4
1f
f3
25
1a
fa
12
ff
ef
fc
0c
fa
05
f2
e6
ec
08
07
13
e7
24
e8
db
f5
05
20
f1
32
0b
e6
c2
06
1a
f7
f8
db
cb
fc
d2
0d
e1
19
0e
f7
01
f5
fa
fd
16
fe
0a
f6
06
0e
ea
07
fc
0b
0d
06
ef
00
fb
fd
f9
fe
12
ea
09
06
1b
eb
07
e3
da
07
f3
c4
e5
02
fe
f8
d9
05
d1
03
13
01
08
00
00
00
fc
0a
ec
c1
cb
f5
d9
c8
fb
08
d4
f8
df
11
a3
f9
db
e7
e4
df
0b
0d
e0
05
f0
ff
f3
ef
05
fa
fd
f9
c5
0b
df
e9
ec
b6
e0
d4
04
0c
eb
ec
e9
f7
eb
18
1f
f8
e8
ee
fd
f6
f4
0e
ff
09
1b
17
fc
d1
15
d1
fe
0a
0d
0e
f9
eb
e7
00
15
f9
12
f1
15
eb
02
18
e0
06
08
ea
f6
08
e3
08
12
10
0d
0a
ef
f9
f3
f1
01
f3
02
1f
1a
01
ff
1c
13
fb
fd
08
03
10
ff
f1
12
f3
ee
ff
14
03
05
ef
19
ec
bd
f1
04
0f
fc
14
f0
00
d2
04
1a
06
0e
cf
f7
09
02
04
fd
05
24
08
fd
0f
08
03
1a
d9
e1
04
17
fc
1a
ea
0d
01
f8
ef
fd
02
08
11
1a
10
ed
fd
18
da
0f
08
13
f9
f0
fb
05
f7
09
fe
05
fd
0f
ff
fa
09
f9
f1
08
f8
09
fa
e9
fa
02
f7
f9
fe
10
f5
fd
ee
05
09
11
08
fb
da
05
ef
f3
11
fe
06
10
05
ed
0d
c6
ea
15
0a
02
ef
f7
11
da
f7
e4
f6
03
ce
f7
05
06
07
03
f9
26
ef
02
eb
c4
eb
22
09
ee
f3
20
eb
b0
e0
05
23
0e
1a
0e
fe
bf
ea
0b
07
f9
d5
00
0c
01
fb
e9
17
d4
2a
ef
2b
08
fc
f3
ee
ee
1c
e7
2d
03
3d
df
e8
07
f9
df
00
23
26
ec
fa
08
38
f6
ef
0e
fa
27
14
22
12
11
ea
e8
02
04
0a
14
f6
1b
09
fc
f4
0b
00
fd
05
0a
0f
e6
fe
10
fd
fb
ef
13
18
21
fb
05
e9
e1
c9
04
10
17
24
20
e9
c1
e6
09
f5
1e
f4
f8
f4
30
06
e8
e4
1a
da
21
ce
0e
08
e1
e4
b5
0a
f8
01
00
f3
fa
f6
db
ee
15
04
fd
f9
f3
0a
f7
f1
11
f9
0e
00
ff
05
cd
ff
03
ed
04
da
ef
15
e2
0c
ec
f6
f2
f9
f0
fe
fa
fe
13
fc
db
0b
09
14
fd
03
ec
fe
02
e8
e5
f0
00
33
07
08
fa
08
04
c2
01
05
04
d8
1c
e0
0d
ea
d7
e6
0b
dd
00
ec
15
e8
ef
c2
fb
18
e5
0c
31
0a
db
12
0e
fb
da
ea
e3
fb
f1
fc
f0
df
cf
02
01
01
13
f6
f5
e1
ea
14
f1
0c
14
24
e9
f2
17
eb
f0
06
0b
f7
07
d7
f6
17
e9
11
f2
f9
ef
06
c5
0f
de
fb
01
d5
f6
fa
04
20
f5
17
06
0f
f6
e0
09
f4
f1
fd
05
ec
08
ca
09
13
f5
2a
1d
f1
fc
ed
e6
e9
ff
e8
cb
f9
00
14
ee
07
fe
f7
db
f0
02
f8
05
f7
fe
00
c8
fb
fa
f5
05
cf
10
00
f3
02
f2
2d
0f
0a
18
f5
f0
e0
3c
41
05
f5
16
f2
06
ed
18
26
05
32
ff
fd
ea
05
21
0c
fa
e5
07
0d
fc
07
fe
ff
ed
fd
dd
11
0b
f4
f9
e1
f2
08
f6
15
18
11
f6
f7
04
f2
cf
14
23
1b
e6
00
fe
02
05
08
00
05
18
2a
15
0a
08
d9
e5
f3
08
21
12
dc
17
f5
8e
dc
0f
20
fd
15
14
0c
d0
f3
06
0e
00
dd
fa
ff
ec
f0
ec
17
1d
00
08
ee
eb
ef
19
27
05
f7
1b
f7
ff
f4
03
10
fe
09
14
00
ee
01
0b
10
00
e7
0a
00
19
03
01
e0
1d
fe
02
eb
d2
d5
17
ff
ff
d8
0f
c7
eb
c4
10
2c
ec
18
0b
04
d8
02
10
f0
cc
e3
d4
f1
e5
f8
04
ee
f9
0b
fb
1b
12
12
fd
07
05
f9
fd
06
18
1f
f3
fa
fd
06
07
00
1e
e9
ff
ed
17
1e
f5
18
da
0b
f3