24
03
0e
c0
db
df
03
1d
fe
d0
1f
de
fa
03
d7
ef
09
40
ef
e8
d0
05
2b
1f
ee
0f
ea
11
22
2f
3b
26
dc
21
da
ce
1c
e1
e6
1d
24
e3
f8
11
28
0b
1c
29
11
e2
31
c8
2b
f3
f7
db
da
0a
1c
00
25
32
f1
d0
05
cf
eb
fc
ad
d4
44
dd
25
e2
af
0d
0b
d1
a8
82
33
b8
ef
f8
2f
e0
46
02
e8
23
02
d5
32
ce
47
19
01
02
17
c7
fd
e8
0e
14
bd
41
fa
dd
e1
f3
c8
ce
f7
eb
ca
3d
38
c4
f8
d8
30
21
d4
cb
d0
ed
cb
30
da
2c
1c
eb
ea
b9
dc
16
ef
16
04
e6
eb
db
2f
0d
e9
25
f6
dc
fb
2b
f4
4e
32
dd
c8
2d
e7
f4
cc
dc
39
b7
42
ff
2c
00
19
03
ec
ea
f9
04
f3
d3
15
f3
00
1f
1b
e5
e5
05
e5
14
40
ad
00
0d
fc
e0
fa
37
e6
36
ec
f7
c7
f1
d4
07
e7
c3
f8
17
1d
e3
40
81
d8
c9
ff
ed
ca
26
f8
eb
fc
0f
d7
fa
e3
a5
26
e5
02
d6
3c
0f
21
cb
02
d5
17
f7
20
a2
2c
b6
07
03
fd
22
d0
d8
e6
fa
d4
fe
22
22
37
ec
2b
32
f5
17
1f
12
03
2a
e2
e3
39
af
0e
54
0b
ed
fb
d7
c2
fd
25
e7
9a
4c
16
e5
f7
16
d4
fe
df
d2
07
d6
d9
40
28
13
f5
1c
0a
5a
e4
11
1e
35
b6
44
07
4d
02
06
f2
33
1b
d9
db
fe
bb
f7
2b
0a
dc
33
d9
d7
16
27
26
11
1f
f0
2c
cd
f3
cf
0b
28
2d
d7
bc
08
ff
03
30
cf
be
22
eb
08
d4
21
da
37
f2
1d
e4
bd
f7
ca
30
12
d9
cc
f0
1c
25
43
a7
f6
50
f2
14
33
10
dc
1a
0d
e4
db
24
ea
e9
02
03
2e
40
1e
0e
d3
23
1f
dc
f3
12
2f
28
da
30
09
07
25
f4
ea
ed
c9
2c
06
ce
e2
e4
15
0f
37
22
db
fe
0e
ce
04
e7
c7
07
ea
f4
d2
ea
27
ea
2c
16
f5
ed
14
23
c7
10
f9
c9
ef
37
2a
13
0b
24
40
42
ef
e1
31
f5
04
db
0e
f8
26
fe
37
e9
41
c3
ab
3e
fd
c3
d4
df
e9
e3
ef
e7
f0
05
d1
1f
3e
00
ea
21
e5
06
d8
2a
d1
fb
57
fc
f1
2e
e1
57
35
f9
56
da
1c
fb
2b
bd
2e
f2
0a
b7
cd
e7
2c
1a
fd
0a
fb
f8
e1
ff
3b
02
16
f4
cb
e7
f9