d9
34
3d
36
ed
ef
81
3b
30
fc
0c
04
05
cd
ef
eb
fe
24
52
0e
e9
da
eb
30
2d
05
1e
d1
30
27
d1
eb
32
50
22
d3
26
d9
41
d3
4a
35
25
c9
39
27
f2
d3
30
1c
50
2f
ee
3d
a3
3e
1b
2a
37
47
de
0c
f5
cf
2a
25
44
ea
0f
43
e4
16
34
36
fb
36
31
f0
bd
cc
fc
48
3a
f2
3d
65
1e
fe
46
50
e6
d6
3b
d6
df
d1
e0
f9
33
48
04
6e
a0
44
1f
56
2f
4e
1d
1d
b5
13
f8
37
4a
f3
26
2c
06
2e
23
44
28
0a
f8
ec
d8
1b
ea
39
7f
e2
31
54
13
fb
25
3a
f0
29
0f
f7
ff
32