d7
d2
d1
e0
f8
67
12
0d
e2
28
dc
14
0d
2e
f5
ec
40
27
f8
e5
67
0f
30
20
e2
f8
e8
ad
c2
29
56
53
f9
d4
eb
27
c1
f3
52
a2
a2
ff
bc
19
08
29
00
db
0f
28
f0
dd
14
de
0b
0b
29
09
ca
21
bf
1b
2b
13
cc
19
e2
f6
b8
0d
1b
c3
b1
f1
1a
f7
e4
da
3f
e3
d9
ca
ee
c5
18
fb
42
1e
25
ff
b6
0a
e6
e8
c6
39
e4
d9
28
e9
f7
fb
14
2d
42
ec
e4
bb
ac
2e
fc
0d
37
26
b8
31
fd
ba
f3
ad
b0
16
35
0f
37
24
20
b6
16
2f
25
f5
34
d1
e6
3c
26
34
3a
16
3b
bd
cb
1d
c5
de
2d
1c
f2
23
e3
f1
f3
ef
09
fb
27
f2
e0
eb
12
1a
0c
ed
66
25
1e
31
ee
3f
36
4a
50
e7
b0
f6
d9
d0
1d
da
e3
31
22
56
e7
a0
b2
ef
0d
cb
d7
33
00
e8
d3
e0
0e
17
2b
e6
e5
4a
20
29
33
f8
c8
fb
e1
e7
33
cb
22
37
f8
35
e2
c9
cf
e1
e1
e1
e0
3f
2b
4e
e4
47
10
ce
21
28
d0
df
e4
04
cd
e7
f5
09
f0
f4
ee
ce
d5
28
2f
23
02
e8
c8
0c
3a
fc
c4
3d
11
f5
be
f3
06
39
22
0e
12
3c
00
23
06
0a
ff
28
35
f9
09
0a
50
e6
2f
14
14
fe
fb
0a
d8
09
37
4b
37
0a
65
cc
f5
ae
e2
25
0a
eb
5f
d7
ee
ba
eb
0f
01
03
f3
02
9c
ff
c8
e7
cd
ea
29
0b
3e
ea
d1
a8
e5
c5
1b
08
06
f2
d3
23
24
1b
e3
0f
26
e5
cd
05
d9
c7
ef
19
f6
c0
e3
df
f6
c1
19
08
ff
c7
f2
de
0f
23
f6
40
1c
ce
2a
10
12
ef
e3
c7
d6
0c
e5
27
d4
28
15
b7
f8
15
f2
0a
1d
2e
ee
e3
09
26
d1
22
1f
b4
2e
fa
3a
1f
e1
fc
1f
2c
fa
fb
46
1c
b7
d8
32
1a
37
4f
11
f2
c9
dd
07
ea
43
de
ce
d6
41
dd
13
05
f6
de
37
f2
02
2a
3d
1f
ee
f7
11
f6
bf
17
15
d2
ef
2b
f8
1d
f1
1d
b4
c4
eb
0e
f3
03
f9
0c
fc
d7
0e
c2
2c
4a
27
49
1c
5a
ce
35
49
27
a9
0d
36
fd
d3
28
3c
d6
fc
b3
b9
a1
07
dd
0b
ca
4e
e3
c0
e9
04
f1
eb
0b
f2
f4
df
ee
cb
08
cd
1e
19
2b
39
20
c3
10
1d
c3
e2
d6
b9
13
ce
12
e1
00
28
0e
0b
27
fa
1b
ee
ff
33
28
08
e7
22
c3
c1
1b
13
2c
27
19
e5
01
fa
11
24
f6
04
0c
ca
01
f8
35
ee
1e
55
39
fd
29
0c
c5
c7
e2
09
17
3a
11
08
b9
09
d0
aa
e6
49
1b
e3
1a
f7
30
44
ea
13
ff
23
c9
e3
f2
0e
11
0c
2d
67
ec
fa
55
09
39
23
c5
d5
13
d0
63
07
fb
d7
c1
c5
2f
08
21
aa
cd
ae
fe
56
1e
d5
1c
e4
e4
18
f4
e6
f0
1a
07
10
e1
dc
cb
c0
3c
11
1b
29
49
c1
01
12
dc
13
dc
06
37
22
f2
f8
21
0b
fe
b0
ec
f9
c1
ea
33
f0
05
08
f3
cc
f4
12
f1
ea
e0
fe
f4
d6
16
28
01
03
db
00
f8
de
d8
bd
d7
3d
07
0d
13
17
00
73
21
00
34
ed
51
f4
32
38
f6
b8
06
f9
e8
dc
01
e9
35
36
04
a5
d5
d1
fb
13
17
f4
3a
34
df
16
21
23
ea
db
b1
cd
de
f1
f5
27
e2
09
ba
fb
dd
4f
08
0e
3d
e0
34
54
e6
00
fb
cf
f2
12
13
59
34
07
55
3f
c2
0a
fb
f0
ff
ef
e8
dd
21
ea
e2
a8
2f
42
f0
f7
29
eb
33
2b
25
c3
13
23
45
f3
3c
21
18
18
03
01
17
fe
d6
b1
10
f2
27
f4
f7
1b
05
d7
ee
24
ca
03
ee
0d
39
07
df
bf
f7
d4
05
11
02
41
2b
0d
fe
30
c5
dd
20
18
dd
19
f6
36
ee
3b
23
9c
1f
38
33
b8
11
f0
f7
3c
fe
3c
19
29
01
d4
e6
26
28
1f
f0
7f
26
fc
7b
18
3d
0f
36
34
f2
aa
2a
cc
c9
26
24
f7
f1
32
31
af
8d
10
ec
41
b8
f9
03
15
db
2a
b3
f1
1b
b6
c3
3a
ad
ba
cb
cf
20
cd
a3
4f
d7
19
35
f0
06
87
bf
c1
25
38
13
de
18
14
b1
d7
20
26
d0
e4
05
d2
15
23
2f
3a
2a
1b
ca
3f
1c
de
02
08
2c
f6
bc
2d
e6
33
0f
25
fb
3d
f6
15
e3
f7
ab
bd
f3
d4
3e
08
c5
47
cd
f8
d7
bf
54
fe
aa
60
fb
38
2c
33
49
95
17
15
69
6d
99
8e
48
43
e4
15
0a
09
1a
f0
0d
fe
0a
10
1d
e7
ed
18
f3
23
12
fe
0f
1e
0b
fb
ee
fb
19
00
17
23
dc
1f
1a
ee
1b
1d
e6
2a
d4
f3
07
da
cb
c9
f6
c6
30
21
d3
0e
cc
c0
dc
47
14
fb
21
ed
29
21
0e
e7
27
ec
db
19
0c