1a
0e
1c
2b
27
da
1b
d6
ed
a0
33
b3
fb
17
d2
7f
44
eb
29
7c
3b
b8
3e
4f
de
b9
db
f6
af
1e
3e
37
36
22
1c
18
14
b7
d9
47
b1
f4
4a
49
3c
1b
5b
58
f0
0c
ca
0c
1b
1d
4b
ec
29
dc
f8
18
07
3e
ae
52
3c
e8
e1
18
ef
2f
1d
f7
d3
24
07
e4
24
5f
f8
33
0e
57
3a
0d
c7
22
d8
dc
df
1b
fe
f7
25
20
29
60
2a
ed
c3
f5
2d
f7
4d
52
12
18
ee
d3
3e
4b
d4
44
11
f8
d9
d8
f3
f6
17
02
50
01
46
1f
01
4f
a7
4c
d8
4d
db
2f
a7
f9
bc
cb
db
40
2b
26
10
25
c2
2e