f4
ea
e1
29
fc
b5
b3
31
14
dd
3b
07
32
d3
9e
15
e2
f1
17
2b
00
f7
1e
d6
ce
d5
21
e9
1c
11
bb
37
1b
23
c1
27
3b
ca
bd
06
22
22
97
f2
b7
14
14
bf
df
c0
01
a0
fd
2f
e0
fb
e6
07
e9
05
2b
d4
cd
81
bc
12
ea
0e
1b
db
3c
c3
12
10
b8
0d
fa
00
b6
b2
24
df
2d
43
16
b0
fd
a4
31
2a
e8
10
d0
fd
ca
e9
29
28
e8
28
db
e0
ce
c0
c7
ea
fd
b5
0a
30
2d
1a
e1
c7
3c
ce
c3
03
04
ff
c6
f8
2e
f0
49
1b
d2
bb
c1
d9
d8
bd
ea
2e
3a
db
b0
e5
1a
f2
02
1d
14
12
25
16
db
2a
c0
b0
e1
3b
e5
18
d2
23
cd
cd
1d
c7
21
2c
d0
be
ad
31
1d
f4
2e
c8
c3
07
17
c2
f5
3e
32
11
3c
b5
1f
1f
9b
d7
39
ed
ef
ff
00
e3
a9
25
05
04
35
f8
92
f4
e2
3e
dc
cb
23
d5
eb
0a
2f
1f
cd
13
12
29
db
ee
43
f7
31
ef
21
02
1e
ec
bd
21
bc
e6
36
1b
48
ab
ad
dd
d3
c7
10
c4
13
1b
22
24
ed
27
a1
e9
a7
1a
1c
e7
32
f5
07
a7
15
24
bc
1a